const unsigned char model[] = {
  0x1c, 0x00, 0x00, 0x00, 0x54, 0x46, 0x4c, 0x33, 0x14, 0x00, 0x20, 0x00,
  0x1c, 0x00, 0x18, 0x00, 0x14, 0x00, 0x10, 0x00, 0x0c, 0x00, 0x00, 0x00,
  0x08, 0x00, 0x04, 0x00, 0x14, 0x00, 0x00, 0x00, 0x1c, 0x00, 0x00, 0x00,
  0x98, 0x00, 0x00, 0x00, 0xf0, 0x00, 0x00, 0x00, 0x08, 0x17, 0x00, 0x00,
  0x18, 0x17, 0x00, 0x00, 0x64, 0x1c, 0x00, 0x00, 0x03, 0x00, 0x00, 0x00,
  0x01, 0x00, 0x00, 0x00, 0x10, 0x00, 0x00, 0x00, 0x00, 0x00, 0x0a, 0x00,
  0x10, 0x00, 0x0c, 0x00, 0x08, 0x00, 0x04, 0x00, 0x0a, 0x00, 0x00, 0x00,
  0x0c, 0x00, 0x00, 0x00, 0x1c, 0x00, 0x00, 0x00, 0x3c, 0x00, 0x00, 0x00,
  0x0f, 0x00, 0x00, 0x00, 0x73, 0x65, 0x72, 0x76, 0x69, 0x6e, 0x67, 0x5f,
  0x64, 0x65, 0x66, 0x61, 0x75, 0x6c, 0x74, 0x00, 0x01, 0x00, 0x00, 0x00,
  0x04, 0x00, 0x00, 0x00, 0x90, 0xff, 0xff, 0xff, 0x0a, 0x00, 0x00, 0x00,
  0x04, 0x00, 0x00, 0x00, 0x08, 0x00, 0x00, 0x00, 0x6f, 0x75, 0x74, 0x70,
  0x75, 0x74, 0x5f, 0x30, 0x00, 0x00, 0x00, 0x00, 0x01, 0x00, 0x00, 0x00,
  0x04, 0x00, 0x00, 0x00, 0xde, 0xe8, 0xff, 0xff, 0x04, 0x00, 0x00, 0x00,
  0x0e, 0x00, 0x00, 0x00, 0x6b, 0x65, 0x72, 0x61, 0x73, 0x5f, 0x74, 0x65,
  0x6e, 0x73, 0x6f, 0x72, 0x5f, 0x35, 0x00, 0x00, 0x02, 0x00, 0x00, 0x00,
  0x34, 0x00, 0x00, 0x00, 0x04, 0x00, 0x00, 0x00, 0xdc, 0xff, 0xff, 0xff,
  0x0d, 0x00, 0x00, 0x00, 0x04, 0x00, 0x00, 0x00, 0x13, 0x00, 0x00, 0x00,
  0x43, 0x4f, 0x4e, 0x56, 0x45, 0x52, 0x53, 0x49, 0x4f, 0x4e, 0x5f, 0x4d,
  0x45, 0x54, 0x41, 0x44, 0x41, 0x54, 0x41, 0x00, 0x08, 0x00, 0x0c, 0x00,
  0x08, 0x00, 0x04, 0x00, 0x08, 0x00, 0x00, 0x00, 0x0c, 0x00, 0x00, 0x00,
  0x04, 0x00, 0x00, 0x00, 0x13, 0x00, 0x00, 0x00, 0x6d, 0x69, 0x6e, 0x5f,
  0x72, 0x75, 0x6e, 0x74, 0x69, 0x6d, 0x65, 0x5f, 0x76, 0x65, 0x72, 0x73,
  0x69, 0x6f, 0x6e, 0x00, 0x0e, 0x00, 0x00, 0x00, 0x14, 0x16, 0x00, 0x00,
  0x0c, 0x16, 0x00, 0x00, 0xac, 0x15, 0x00, 0x00, 0x0c, 0x14, 0x00, 0x00,
  0xf4, 0x13, 0x00, 0x00, 0xbc, 0x13, 0x00, 0x00, 0x84, 0x13, 0x00, 0x00,
  0xb4, 0x00, 0x00, 0x00, 0xac, 0x00, 0x00, 0x00, 0xa4, 0x00, 0x00, 0x00,
  0x9c, 0x00, 0x00, 0x00, 0x94, 0x00, 0x00, 0x00, 0x74, 0x00, 0x00, 0x00,
  0x04, 0x00, 0x00, 0x00, 0x92, 0xe9, 0xff, 0xff, 0x04, 0x00, 0x00, 0x00,
  0x60, 0x00, 0x00, 0x00, 0x10, 0x00, 0x00, 0x00, 0x00, 0x00, 0x00, 0x00,
  0x08, 0x00, 0x0e, 0x00, 0x08, 0x00, 0x04, 0x00, 0x08, 0x00, 0x00, 0x00,
  0x10, 0x00, 0x00, 0x00, 0x24, 0x00, 0x00, 0x00, 0x00, 0x00, 0x06, 0x00,
  0x08, 0x00, 0x04, 0x00, 0x06, 0x00, 0x00, 0x00, 0x04, 0x00, 0x00, 0x00,
  0x00, 0x00, 0x00, 0x00, 0x0c, 0x00, 0x18, 0x00, 0x14, 0x00, 0x10, 0x00,
  0x0c, 0x00, 0x04, 0x00, 0x0c, 0x00, 0x00, 0x00, 0x9a, 0xc9, 0xff, 0x20,
  0x84, 0x75, 0xc6, 0xbe, 0x02, 0x00, 0x00, 0x00, 0x02, 0x00, 0x00, 0x00,
  0x04, 0x00, 0x00, 0x00, 0x06, 0x00, 0x00, 0x00, 0x32, 0x2e, 0x31, 0x38,
  0x2e, 0x30, 0x00, 0x00, 0xfe, 0xe9, 0xff, 0xff, 0x04, 0x00, 0x00, 0x00,
  0x10, 0x00, 0x00, 0x00, 0x31, 0x2e, 0x35, 0x2e, 0x30, 0x00, 0x00, 0x00,
  0x00, 0x00, 0x00, 0x00, 0x00, 0x00, 0x00, 0x00, 0x80, 0xe5, 0xff, 0xff,
  0x84, 0xe5, 0xff, 0xff, 0x88, 0xe5, 0xff, 0xff, 0x8c, 0xe5, 0xff, 0xff,
  0x2a, 0xea, 0xff, 0xff, 0x04, 0x00, 0x00, 0x00, 0xc0, 0x12, 0x00, 0x00,
  0x4a, 0x5d, 0xc3, 0x3c, 0x19, 0x16, 0xb2, 0x3c, 0x57, 0xc2, 0xea, 0x3d,
  0xd9, 0x50, 0x35, 0x3d, 0x72, 0x86, 0x14, 0x3e, 0xd5, 0x49, 0xdb, 0x3d,
  0x0b, 0xeb, 0x45, 0xbe, 0xe5, 0x76, 0xb5, 0xbc, 0x8b, 0x77, 0x80, 0x3e,
  0xb7, 0xb6, 0xc7, 0xbd, 0x07, 0xec, 0xa5, 0x3d, 0xa0, 0x7e, 0x1e, 0x3e,
  0xd4, 0xf7, 0x29, 0xbe, 0x35, 0x51, 0xa2, 0x3d, 0x5b, 0xef, 0x82, 0x3e,
  0xa1, 0x12, 0x47, 0xbd, 0x48, 0x3e, 0x39, 0xbe, 0xb7, 0xcb, 0xa4, 0xbd,
  0x93, 0x44, 0x99, 0xbd, 0x59, 0xb5, 0xb8, 0x3d, 0x21, 0xdd, 0x75, 0x3d,
  0x41, 0xad, 0x53, 0xbe, 0x8a, 0xd7, 0x52, 0x3d, 0x8a, 0xec, 0x0d, 0x3e,
  0xcd, 0xf6, 0xc4, 0xbb, 0x17, 0x0e, 0x7b, 0x3d, 0x5f, 0xde, 0x27, 0xbe,
  0xac, 0xeb, 0x59, 0x3d, 0xd6, 0xba, 0x39, 0x3e, 0x84, 0xef, 0xca, 0x3d,
  0x25, 0xd4, 0xb0, 0xbd, 0x14, 0xb2, 0x10, 0x3e, 0xcb, 0x23, 0x15, 0x3e,
  0x57, 0x52, 0x85, 0xbc, 0xac, 0x62, 0x56, 0xbe, 0xd7, 0xa3, 0x0b, 0x3e,
  0x8f, 0xc5, 0x9b, 0x3c, 0x23, 0xd7, 0x5a, 0x3e, 0x9e, 0x1e, 0xb8, 0x3d,
  0xc8, 0xd5, 0x92, 0xbc, 0xa6, 0x8f, 0x08, 0x3e, 0x98, 0x13, 0x7c, 0x3e,
  0xf3, 0xf9, 0x1c, 0xbe, 0xb6, 0xc3, 0xfa, 0xbd, 0x0b, 0xc7, 0xa3, 0xbd,
  0xad, 0x2b, 0x94, 0xbc, 0x84, 0xf7, 0xad, 0xbc, 0x55, 0xc8, 0x16, 0x3d,
  0x44, 0xf4, 0x5e, 0xbe, 0x3a, 0x27, 0x89, 0xbd, 0x0f, 0x6b, 0x3b, 0xbe,
  0xa9, 0xef, 0xf9, 0xbb, 0xd4, 0x4d, 0x1a, 0xbe, 0x20, 0x08, 0x8e, 0xbc,
  0x64, 0x62, 0x75, 0x3d, 0xfe, 0x9b, 0x09, 0x3e, 0xe1, 0x14, 0x0e, 0x3e,
  0x4e, 0xab, 0x0c, 0x3e, 0xcc, 0xa1, 0x43, 0x3e, 0x84, 0x1f, 0x3c, 0xbe,
  0xa6, 0x3d, 0x21, 0x3c, 0x89, 0xda, 0x34, 0xbe, 0xc8, 0x94, 0x08, 0x3e,
  0x2a, 0xc1, 0x93, 0xbd, 0xae, 0xab, 0xf7, 0xbd, 0x92, 0x03, 0x29, 0xbe,
  0x0c, 0xce, 0x2f, 0xbe, 0xab, 0x3b, 0x8e, 0xbd, 0xea, 0xf6, 0xa8, 0xbd,
  0xab, 0x47, 0xdb, 0xbd, 0x99, 0xe1, 0x06, 0x3e, 0x0b, 0x12, 0x66, 0x3e,
  0x1b, 0x06, 0x18, 0xbe, 0xb4, 0xe6, 0x30, 0x3e, 0x0b, 0x26, 0x54, 0x3e,
  0x67, 0xcc, 0x05, 0x3e, 0xfb, 0x4e, 0x87, 0x3c, 0xb7, 0xd6, 0x7c, 0x3e,
  0x2c, 0x64, 0x90, 0x3d, 0x46, 0xab, 0x60, 0xbd, 0x25, 0x24, 0x88, 0xbc,
  0xfc, 0x76, 0x98, 0xbd, 0x23, 0x04, 0x9a, 0xbd, 0x92, 0x95, 0x4d, 0x3e,
  0x5e, 0xd7, 0x04, 0xbe, 0x2a, 0x34, 0x2d, 0xbe, 0xbf, 0xe7, 0xfe, 0x3d,
  0xe7, 0x19, 0x6b, 0xbe, 0xc4, 0xda, 0x5b, 0xbe, 0x68, 0x62, 0xf2, 0xbd,
  0xd2, 0xd4, 0x74, 0xbc, 0x3f, 0x25, 0x4b, 0xbe, 0xd7, 0x02, 0x8f, 0x3c,
  0xcf, 0x10, 0x50, 0xbe, 0x24, 0x89, 0x9e, 0xbc, 0x4c, 0x0e, 0x2b, 0x3e,
  0x27, 0x2b, 0xf6, 0xbd, 0xf8, 0x1e, 0x60, 0x3e, 0xac, 0x5b, 0x5d, 0x3e,
  0x56, 0xfa, 0x18, 0xbe, 0x1c, 0x35, 0x43, 0xbc, 0x19, 0x0d, 0x0d, 0xbe,
  0x40, 0xf5, 0x8d, 0xbd, 0x89, 0x3f, 0xbf, 0x3c, 0x02, 0xb0, 0x44, 0xbe,
  0x52, 0x3c, 0x4a, 0xbe, 0x26, 0xd5, 0x14, 0xbd, 0x31, 0xb1, 0xee, 0xbd,
  0x5d, 0xe4, 0xaa, 0xbd, 0x6a, 0x76, 0xff, 0x3d, 0xa8, 0x95, 0xb2, 0xbd,
  0xbc, 0x60, 0x33, 0xbe, 0xc3, 0xeb, 0xcb, 0x3c, 0x5e, 0xe6, 0xf5, 0x3d,
  0x43, 0xa7, 0x77, 0x3c, 0x19, 0xda, 0x1b, 0xbd, 0xef, 0x08, 0x2a, 0x3e,
  0x2e, 0x3e, 0x32, 0xbe, 0xa5, 0xc1, 0x63, 0xbe, 0xc7, 0x8a, 0x14, 0xbe,
  0x17, 0xf8, 0x3c, 0x3e, 0x94, 0xdc, 0x35, 0xbe, 0x74, 0xa2, 0xf2, 0xbd,
  0x3f, 0xbf, 0xf3, 0xbc, 0x1e, 0xfa, 0x8e, 0xbe, 0x02, 0x5b, 0xc9, 0x3d,
  0x16, 0xc2, 0xbb, 0x3d, 0xef, 0x3a, 0xff, 0x3d, 0xbd, 0xaf, 0xac, 0x3c,
  0x8e, 0x80, 0x3b, 0xbe, 0x42, 0x51, 0x42, 0xbd, 0x37, 0xea, 0x1c, 0x3d,
  0xa1, 0xdc, 0x40, 0x3e, 0xba, 0x06, 0xd5, 0x3d, 0x09, 0xa8, 0xb1, 0x3b,
  0x0c, 0xb5, 0xdf, 0xbd, 0x8f, 0xec, 0xf3, 0xbd, 0x5f, 0x78, 0x43, 0xbe,
  0x88, 0x9b, 0x39, 0x3d, 0xcf, 0xa2, 0xc3, 0x3d, 0x64, 0x44, 0x1e, 0x3e,
  0xee, 0x1a, 0x54, 0xbd, 0x9e, 0x31, 0x81, 0x3d, 0x3b, 0xcf, 0xfe, 0x3d,
  0x8f, 0x68, 0xd7, 0x3d, 0x9c, 0x37, 0x17, 0x3d, 0x49, 0x28, 0x02, 0xbe,
  0x21, 0xc4, 0x0a, 0xbe, 0x26, 0x54, 0x14, 0x3e, 0x5c, 0xb5, 0x80, 0x3b,
  0xd7, 0x6d, 0xc5, 0xbd, 0x4b, 0x6d, 0x15, 0xbe, 0x33, 0x40, 0x9e, 0xbd,
  0x69, 0x45, 0x4d, 0x3d, 0x1f, 0xb1, 0x56, 0xbe, 0xe0, 0x2e, 0xa4, 0x3d,
  0x12, 0x5f, 0x9d, 0x3d, 0xbe, 0xc1, 0xbf, 0x3d, 0x99, 0x6b, 0xbb, 0xbd,
  0xdf, 0xbf, 0x1c, 0x3e, 0x35, 0x30, 0xeb, 0x3c, 0x96, 0x26, 0xd6, 0x3d,
  0xf1, 0xdb, 0x07, 0x3d, 0x9e, 0xe4, 0x0e, 0x3c, 0x4d, 0x82, 0xd8, 0xbd,
  0x29, 0xf5, 0xe8, 0xbd, 0x0e, 0x39, 0xa8, 0xbd, 0xba, 0x44, 0x62, 0x3d,
  0xf0, 0x80, 0x4c, 0x3e, 0xe5, 0x85, 0xa4, 0x3c, 0x34, 0xb7, 0x51, 0x3e,
  0xd2, 0x51, 0xc3, 0x3c, 0xba, 0x68, 0xfb, 0x3c, 0x0b, 0xaf, 0xa2, 0xbd,
  0xd2, 0xe9, 0x15, 0x3d, 0x3e, 0x2f, 0x2c, 0x3d, 0x41, 0x84, 0x81, 0xbd,
  0x3b, 0x20, 0x89, 0xbd, 0x81, 0x1c, 0x80, 0x3e, 0x14, 0xcb, 0xf9, 0xbd,
  0x47, 0x6a, 0x83, 0xbe, 0x58, 0xc0, 0x96, 0x3d, 0xae, 0x18, 0xa3, 0x3d,
  0xc7, 0x23, 0x0e, 0xbd, 0xad, 0xcb, 0xa7, 0xbd, 0x79, 0x3d, 0x22, 0xbe,
  0xde, 0x26, 0x81, 0xbe, 0x6e, 0xa8, 0x68, 0xbc, 0x15, 0x9f, 0x98, 0xbc,
  0x21, 0x5a, 0x80, 0x3c, 0x57, 0x6f, 0xd9, 0xbd, 0xe2, 0xfc, 0x27, 0x3e,
  0x58, 0xf8, 0xd3, 0x3d, 0x77, 0x17, 0x2e, 0x3e, 0xde, 0x3f, 0x8b, 0x3d,
  0x42, 0xb9, 0xc5, 0x3b, 0xa8, 0x3d, 0x4b, 0xbd, 0x79, 0x67, 0xf3, 0xbd,
  0x66, 0x42, 0x92, 0x3c, 0xd8, 0xe7, 0x86, 0xbd, 0x04, 0x85, 0x19, 0x3e,
  0xd0, 0x41, 0x28, 0x3e, 0x3a, 0x1e, 0x1c, 0x3e, 0xde, 0x12, 0x64, 0xbd,
  0xeb, 0xe8, 0x3f, 0x3e, 0xf2, 0x69, 0x06, 0xbe, 0x40, 0xd6, 0x62, 0xbe,
  0xd9, 0x32, 0x07, 0x3e, 0x12, 0xe4, 0xe5, 0xbb, 0x57, 0x44, 0x94, 0xbd,
  0x8b, 0x29, 0x50, 0xbe, 0x40, 0x9c, 0x52, 0x3e, 0xb7, 0x22, 0x00, 0x3e,
  0x3d, 0x4b, 0x85, 0xbe, 0xbe, 0x81, 0x12, 0x3e, 0xb2, 0xcc, 0x74, 0xbe,
  0x02, 0xde, 0x51, 0x3c, 0x13, 0x27, 0x0f, 0x3d, 0xde, 0xd4, 0x02, 0xbe,
  0xae, 0x11, 0x96, 0x3d, 0xaf, 0xcc, 0x97, 0xbd, 0x2b, 0x57, 0x51, 0xbe,
  0x60, 0xf5, 0x44, 0x3e, 0x91, 0x95, 0xa3, 0xbe, 0xb5, 0x83, 0x2a, 0xbe,
  0x83, 0x2b, 0x0b, 0x3e, 0xf1, 0xbc, 0xa7, 0xbe, 0x33, 0x85, 0x3a, 0x3e,
  0x30, 0x3d, 0xb0, 0xbd, 0x32, 0xd2, 0xfc, 0x3d, 0x77, 0x3d, 0x38, 0xbd,
  0x63, 0xaa, 0xae, 0xbd, 0x97, 0x35, 0x45, 0x3c, 0xda, 0x20, 0x29, 0xbd,
  0x1f, 0x90, 0x33, 0x3e, 0xd2, 0xdb, 0x2d, 0x3d, 0xa4, 0x49, 0x0f, 0xbe,
  0xb3, 0x12, 0x54, 0x3e, 0x00, 0xde, 0xe7, 0xbd, 0xe5, 0x20, 0x4e, 0xbe,
  0xdd, 0xb5, 0x7b, 0x3c, 0xac, 0x4d, 0xb3, 0x3c, 0x11, 0xe7, 0xf9, 0x3c,
  0x08, 0x6a, 0x38, 0x3d, 0x0c, 0x0c, 0x26, 0x3e, 0x30, 0x3f, 0x0e, 0x3e,
  0xe2, 0x08, 0xd1, 0xbd, 0xb6, 0x14, 0x03, 0x3e, 0x80, 0xeb, 0xef, 0xbd,
  0x8f, 0x74, 0x26, 0xbe, 0x35, 0x2a, 0x57, 0x3e, 0xa6, 0x7f, 0xe3, 0x3d,
  0x39, 0xa6, 0x99, 0xbd, 0xa8, 0x48, 0x70, 0xbd, 0x0c, 0x7b, 0x4e, 0xbd,
  0x43, 0x03, 0x1d, 0xbe, 0x1a, 0xde, 0x69, 0x3e, 0x34, 0x46, 0x34, 0xbc,
  0xd6, 0xe4, 0x6c, 0x3d, 0x4d, 0x82, 0x51, 0x3e, 0xe9, 0xe2, 0x92, 0x3d,
  0xfc, 0xe2, 0x4f, 0x3d, 0x0f, 0x1b, 0x34, 0xbd, 0x7f, 0xc8, 0x94, 0xbd,
  0x2d, 0x82, 0xea, 0x3c, 0x77, 0x25, 0xb5, 0x3c, 0x6a, 0xdf, 0x0d, 0x3d,
  0xc2, 0xec, 0x11, 0xbe, 0x5a, 0xff, 0x08, 0x3e, 0x71, 0x5c, 0x1d, 0xbe,
  0x09, 0x56, 0x2e, 0xbe, 0x57, 0xa6, 0x3f, 0x3e, 0x95, 0x8c, 0x72, 0xbd,
  0x98, 0x6e, 0x7d, 0xbd, 0x69, 0x62, 0xdc, 0xbd, 0xe5, 0x7d, 0x2b, 0xbe,
  0x1a, 0xde, 0x91, 0x3d, 0xd7, 0xf6, 0x02, 0x3e, 0x7c, 0x90, 0x2b, 0xbd,
  0xdc, 0xaa, 0x64, 0xbd, 0xe3, 0x41, 0x0c, 0xbe, 0x90, 0x86, 0xf7, 0xbb,
  0x42, 0xce, 0x46, 0xbb, 0xcc, 0xc9, 0x3c, 0x3e, 0xf6, 0x54, 0x3c, 0xbe,
  0x08, 0xf7, 0x13, 0xbe, 0x64, 0x98, 0x9c, 0xbd, 0x22, 0x16, 0x31, 0xbe,
  0x80, 0x41, 0x9a, 0x3c, 0xb2, 0xf8, 0x51, 0xbd, 0x93, 0xf2, 0x0d, 0x3d,
  0xf3, 0xf2, 0x95, 0xbd, 0x07, 0x76, 0x63, 0x3c, 0xe4, 0x1e, 0x4e, 0xbd,
  0x1c, 0x25, 0xae, 0xbd, 0xcd, 0x32, 0x9a, 0x3d, 0x88, 0x42, 0x3e, 0x3e,
  0xe3, 0xa2, 0xb8, 0xbd, 0xd5, 0x58, 0x6f, 0xbe, 0xeb, 0x91, 0x09, 0x3d,
  0xa7, 0xdc, 0x28, 0xbe, 0x21, 0xe4, 0x75, 0xbd, 0x85, 0x52, 0xa3, 0x3c,
  0xfe, 0x7b, 0x09, 0x3e, 0x72, 0x60, 0xad, 0xbd, 0x95, 0x11, 0x0e, 0x3e,
  0x04, 0x18, 0xe1, 0x3d, 0xd2, 0xb2, 0x3f, 0xbe, 0x9b, 0x0e, 0x41, 0xbe,
  0xd1, 0xb6, 0x47, 0xbd, 0x70, 0xec, 0x0d, 0x3e, 0xda, 0x3f, 0xcd, 0x3d,
  0xd9, 0xf9, 0x71, 0x3d, 0xbe, 0x6a, 0x14, 0x3e, 0xbc, 0x20, 0x4d, 0x3e,
  0xdb, 0x3e, 0x0d, 0xbe, 0xb1, 0xd8, 0xcf, 0x3d, 0x4c, 0x58, 0x0c, 0x3d,
  0x64, 0x23, 0x6d, 0x3e, 0x89, 0xc0, 0x98, 0xbd, 0x07, 0x72, 0x2e, 0x3e,
  0x36, 0x1d, 0x87, 0xbc, 0x88, 0x94, 0x01, 0x3e, 0xe9, 0xf9, 0x56, 0x3e,
  0x50, 0xce, 0x8d, 0xbc, 0xb5, 0xd5, 0xa1, 0xbd, 0x67, 0xd7, 0xdc, 0x3d,
  0x08, 0x8c, 0x8e, 0x3d, 0x3b, 0x66, 0x90, 0x3d, 0x80, 0xc2, 0xfd, 0xbd,
  0x71, 0x8b, 0xd8, 0xbd, 0x2d, 0x7d, 0x55, 0xbe, 0x8a, 0x0a, 0xca, 0x3d,
  0x53, 0xb2, 0x40, 0x3e, 0x2a, 0x41, 0x39, 0xbe, 0x80, 0xf2, 0xf1, 0xbc,
  0x6d, 0x0f, 0x59, 0xbd, 0xaf, 0x62, 0x09, 0x3e, 0xbd, 0xe5, 0xad, 0x3c,
  0x02, 0x39, 0xa9, 0xbd, 0x9d, 0x5d, 0x3a, 0x3e, 0x9d, 0x44, 0xc4, 0x3d,
  0x65, 0xdf, 0x60, 0x3c, 0xdc, 0x04, 0x90, 0xbd, 0x19, 0x4a, 0xf6, 0xbd,
  0x6a, 0x9d, 0xb3, 0x3d, 0x41, 0x61, 0x3f, 0xbd, 0x01, 0xe7, 0x82, 0xbd,
  0x39, 0x0d, 0x78, 0xbe, 0x67, 0x56, 0xde, 0x3d, 0x23, 0x53, 0x85, 0xbd,
  0x6c, 0x9b, 0xa6, 0x3d, 0x01, 0x6b, 0x62, 0xbd, 0x36, 0x43, 0xcf, 0x3c,
  0x3d, 0x06, 0x0d, 0x3d, 0xec, 0x69, 0x26, 0xbe, 0x6b, 0x30, 0x44, 0xbe,
  0x1a, 0xc5, 0xc9, 0x3d, 0xcc, 0x2d, 0x22, 0x3c, 0xf4, 0x0f, 0x89, 0x3c,
  0x61, 0xce, 0x44, 0x3c, 0x64, 0x0f, 0x6b, 0xbe, 0xe9, 0x79, 0xfe, 0x3d,
  0xf5, 0x4a, 0xa9, 0x3a, 0xc7, 0x26, 0x2e, 0xbe, 0x14, 0x5d, 0xe0, 0xbd,
  0x87, 0x0a, 0x68, 0x3e, 0xdc, 0xb0, 0x7a, 0x3d, 0x79, 0xe6, 0x6d, 0x3c,
  0x2a, 0xc8, 0x01, 0x3e, 0xb0, 0x73, 0xeb, 0x3d, 0x6e, 0x5d, 0x91, 0xbb,
  0x63, 0x09, 0xe3, 0x3c, 0xb5, 0x2f, 0x12, 0xbe, 0x42, 0x44, 0x08, 0xbe,
  0x41, 0x55, 0xff, 0xbd, 0x84, 0xc3, 0x37, 0xbd, 0x5d, 0xe3, 0xfd, 0xbd,
  0xac, 0xe8, 0x2e, 0xbd, 0x3c, 0x1c, 0xc4, 0xbd, 0xaa, 0x85, 0x09, 0x3e,
  0xf2, 0x85, 0x3a, 0x3d, 0x0e, 0x25, 0x00, 0xbe, 0x24, 0x48, 0x08, 0x3e,
  0x1f, 0x8e, 0x74, 0x3e, 0xab, 0xcf, 0x2f, 0xbe, 0x65, 0x6a, 0x76, 0xbb,
  0x20, 0x12, 0xe4, 0x3d, 0x7a, 0x0d, 0xb7, 0xbc, 0xaa, 0x7f, 0x21, 0xbe,
  0xfc, 0x3c, 0x6a, 0xbc, 0x40, 0x8b, 0x1e, 0xbe, 0x07, 0x04, 0xd7, 0x3d,
  0x4d, 0x24, 0x06, 0x3e, 0xd2, 0x50, 0x58, 0x3e, 0x95, 0x04, 0x61, 0xbe,
  0x93, 0x89, 0x3d, 0xbe, 0x74, 0x6f, 0x81, 0x3e, 0x0a, 0x93, 0xf9, 0x3d,
  0x28, 0x7b, 0x3b, 0xbe, 0x32, 0x02, 0x0a, 0x3e, 0xcd, 0xe4, 0x13, 0x3e,
  0x0f, 0xa2, 0x0d, 0xbe, 0xc4, 0x52, 0x43, 0x3d, 0xb3, 0x0b, 0xc9, 0xbd,
  0x05, 0xd7, 0x69, 0x3d, 0xe4, 0x02, 0xb0, 0x3c, 0xd4, 0xde, 0x59, 0xbe,
  0xaf, 0x33, 0x6e, 0xbd, 0x2b, 0xbd, 0xd2, 0x3d, 0x85, 0xf6, 0xcd, 0x3d,
  0x7d, 0xa5, 0x62, 0xbe, 0xd9, 0x78, 0xe3, 0xbc, 0x60, 0xb6, 0x43, 0x3e,
  0xad, 0x4b, 0xbe, 0xbd, 0x61, 0x56, 0x3c, 0xbe, 0xe6, 0x10, 0x41, 0xbe,
  0x1a, 0x64, 0x63, 0xbe, 0x1b, 0xee, 0x2b, 0xbe, 0xdd, 0xf9, 0x80, 0xbd,
  0x0c, 0xca, 0x58, 0x3e, 0xc6, 0x38, 0x9e, 0xbd, 0x0e, 0xb4, 0x22, 0xbe,
  0x27, 0x38, 0x87, 0x3d, 0x9d, 0x2d, 0x0d, 0xbd, 0x34, 0x36, 0xd8, 0x3c,
  0xf9, 0x12, 0xd3, 0xbc, 0x09, 0x17, 0x0d, 0x3e, 0x88, 0xd3, 0x19, 0xbd,
  0x54, 0x11, 0x96, 0x3d, 0x79, 0x27, 0x98, 0x3b, 0x12, 0xab, 0x09, 0xbe,
  0xf2, 0x15, 0x12, 0x3d, 0xdc, 0x5c, 0x8c, 0xbd, 0xd9, 0x28, 0x87, 0x3d,
  0xf4, 0xc9, 0xab, 0x3d, 0x02, 0xce, 0x46, 0x3e, 0xe0, 0xb8, 0xa9, 0xbd,
  0xbd, 0x1f, 0x0c, 0x3d, 0x47, 0x5e, 0x05, 0xbe, 0x82, 0x5b, 0x7e, 0x3e,
  0x25, 0x92, 0x22, 0xbe, 0x07, 0x16, 0x7a, 0xbd, 0x64, 0xb8, 0x84, 0x3d,
  0x93, 0x52, 0x65, 0xbe, 0xbe, 0x70, 0x5c, 0x3e, 0x81, 0x39, 0x0b, 0xbe,
  0x04, 0xe9, 0x07, 0xbd, 0xad, 0xc3, 0x2d, 0xbd, 0x67, 0x33, 0x21, 0xbe,
  0xdb, 0x27, 0x99, 0x3a, 0x4f, 0x35, 0x20, 0xbe, 0x74, 0x40, 0x22, 0xbe,
  0x71, 0xa1, 0xd5, 0x3d, 0x2e, 0xba, 0x20, 0xbe, 0xdf, 0x2a, 0xeb, 0xbd,
  0x37, 0xcc, 0xae, 0xbd, 0xcd, 0xf1, 0x53, 0xbd, 0x0f, 0xb3, 0x1b, 0x3e,
  0xb5, 0x9a, 0x79, 0x3c, 0xca, 0xf0, 0x63, 0xbe, 0x8d, 0xe3, 0x1a, 0xbe,
  0x03, 0xf8, 0x68, 0x3d, 0x07, 0x77, 0x35, 0xbe, 0x4d, 0x78, 0x06, 0xbd,
  0x47, 0xb4, 0x68, 0x3d, 0xf1, 0x32, 0x05, 0x3e, 0x26, 0x11, 0xd8, 0x3d,
  0xd3, 0x5e, 0xc9, 0xbc, 0x12, 0x1c, 0xad, 0xbd, 0xf1, 0x94, 0x04, 0xbd,
  0x5c, 0x46, 0xa7, 0x3c, 0x95, 0x46, 0x03, 0xbe, 0xea, 0x30, 0x85, 0xbe,
  0x57, 0x58, 0x54, 0xbe, 0x64, 0xfa, 0x1a, 0xbe, 0x57, 0xdb, 0x51, 0xbe,
  0x9e, 0xec, 0xed, 0x3d, 0xf3, 0x0c, 0x7f, 0xbd, 0x58, 0x51, 0xab, 0xbd,
  0x68, 0x23, 0x0b, 0xbe, 0x40, 0x5e, 0x75, 0xbd, 0x94, 0x72, 0x8c, 0x3d,
  0xfc, 0x7b, 0x8e, 0xbc, 0x38, 0x46, 0x01, 0x3e, 0x3a, 0xac, 0x9f, 0xbc,
  0x9b, 0xd2, 0xcc, 0x3d, 0x05, 0xcc, 0x0a, 0xbe, 0x59, 0xf6, 0xf6, 0x3c,
  0x06, 0xb7, 0x29, 0x3c, 0xea, 0xb2, 0xb2, 0xbd, 0x2f, 0x00, 0x28, 0xbd,
  0xe1, 0xe3, 0x0c, 0x3e, 0x15, 0x0a, 0x12, 0x3e, 0xdf, 0x7a, 0xe1, 0xbd,
  0x53, 0x7b, 0xa9, 0xbd, 0x31, 0xa2, 0x42, 0x3e, 0xc9, 0x2f, 0x50, 0xbe,
  0xad, 0x5c, 0x21, 0x3e, 0x19, 0x0e, 0x06, 0xbe, 0xda, 0xa0, 0xef, 0x3b,
  0xc2, 0x54, 0x77, 0x3d, 0x28, 0x8f, 0xf5, 0xbd, 0xd7, 0xf8, 0x94, 0x3d,
  0x9e, 0x21, 0xd2, 0xbd, 0xeb, 0x88, 0x43, 0xbe, 0x98, 0xfc, 0x41, 0xbd,
  0x3d, 0x3e, 0x55, 0xbd, 0x8c, 0xba, 0xb7, 0x3c, 0x04, 0xeb, 0x01, 0x3e,
  0x2a, 0xeb, 0x23, 0x3d, 0xa6, 0xd6, 0x8d, 0xbd, 0x68, 0x6a, 0xd8, 0x3b,
  0x4c, 0xa0, 0x36, 0xbe, 0x4a, 0x45, 0x50, 0x3e, 0x7e, 0x8f, 0xc8, 0x3d,
  0x97, 0xc4, 0x16, 0x3e, 0x34, 0xa4, 0x1a, 0x3e, 0xec, 0xc3, 0xc6, 0xbd,
  0x5e, 0x66, 0xd6, 0x3d, 0x2f, 0x8a, 0x67, 0x3c, 0x4e, 0x8d, 0x24, 0x3e,
  0xca, 0x25, 0x05, 0x3e, 0x6e, 0x47, 0xeb, 0x3c, 0xd3, 0x80, 0x76, 0xbe,
  0xe6, 0xca, 0x2b, 0x3d, 0xc9, 0xf7, 0xeb, 0xbc, 0xa9, 0x07, 0xf0, 0x3c,
  0xcc, 0x98, 0x80, 0xbe, 0x4d, 0x6b, 0xd1, 0x3d, 0xee, 0x4d, 0x26, 0xbe,
  0x80, 0xab, 0x35, 0xbd, 0x91, 0x14, 0x5c, 0x3e, 0xbf, 0x05, 0xc1, 0xbd,
  0x70, 0x6a, 0x98, 0x3d, 0xaa, 0x32, 0x1e, 0xbd, 0xc2, 0x4b, 0x8e, 0xbd,
  0x2c, 0x8a, 0xb8, 0x3d, 0x61, 0xcc, 0x00, 0xbe, 0x4a, 0xa1, 0x51, 0x3d,
  0x77, 0xf4, 0x2a, 0xbe, 0x64, 0x86, 0x90, 0x3d, 0x3a, 0x53, 0x0b, 0x3a,
  0x9a, 0x59, 0xf3, 0xbc, 0x18, 0x00, 0xe4, 0x3d, 0xf6, 0xfc, 0xec, 0x3d,
  0x45, 0xa8, 0xf0, 0x39, 0x8c, 0x31, 0x9a, 0xbc, 0x93, 0x33, 0x02, 0xbe,
  0xb9, 0x52, 0x02, 0xbe, 0xd9, 0xc8, 0x33, 0x3d, 0x7d, 0x5c, 0x40, 0x3e,
  0xd5, 0x33, 0xc2, 0xbd, 0xbb, 0xeb, 0xe2, 0xbd, 0xbc, 0xb3, 0x08, 0x3e,
  0xc6, 0xb8, 0x9d, 0xbd, 0x40, 0x7d, 0x10, 0x3e, 0x6e, 0xe4, 0x63, 0x3e,
  0xc0, 0xdb, 0x31, 0xbe, 0x8c, 0x95, 0xd4, 0xbd, 0xa4, 0xa2, 0x2c, 0x3e,
  0x29, 0x7d, 0x15, 0x3e, 0x47, 0x01, 0x73, 0xbd, 0x0a, 0x21, 0x42, 0x3c,
  0x2f, 0x41, 0xc9, 0x3d, 0x45, 0xf7, 0x84, 0xbd, 0xcd, 0x34, 0xe7, 0xbd,
  0x55, 0x1a, 0x4d, 0x3e, 0x89, 0x1b, 0x79, 0xbc, 0x19, 0x44, 0xac, 0xbd,
  0x3a, 0x1b, 0x42, 0xbe, 0xad, 0x5d, 0x20, 0xbe, 0xdd, 0x25, 0x46, 0xbd,
  0xb9, 0xe4, 0x37, 0xbd, 0x48, 0x94, 0x09, 0xbd, 0x7f, 0x7e, 0x29, 0xbe,
  0xb8, 0x1b, 0x69, 0x3d, 0x2c, 0x9b, 0x63, 0xbe, 0xec, 0x71, 0x06, 0xbe,
  0x10, 0x6d, 0xb5, 0xbd, 0xce, 0x5b, 0x92, 0xbe, 0x69, 0x2d, 0x42, 0x3e,
  0x18, 0x66, 0xd7, 0xbc, 0xe3, 0x69, 0x84, 0xbe, 0x60, 0xd7, 0xb6, 0xbd,
  0xde, 0x04, 0x3e, 0x3e, 0x4b, 0x9c, 0x40, 0xbe, 0x86, 0xa4, 0x5d, 0x3e,
  0x41, 0x5a, 0xad, 0xbd, 0x9c, 0xa6, 0xd9, 0x3b, 0x9d, 0x67, 0x3a, 0xbe,
  0xf8, 0x9a, 0x1d, 0x3e, 0x1a, 0xd4, 0x77, 0xbd, 0x0a, 0xbe, 0x4a, 0x3e,
  0x52, 0x52, 0x4c, 0xbe, 0x0b, 0x4c, 0x20, 0xbe, 0xc4, 0xd7, 0xd2, 0xbc,
  0x9e, 0xe2, 0x42, 0xbc, 0x59, 0x69, 0x16, 0xbd, 0xcc, 0x66, 0x1e, 0x3e,
  0x26, 0x82, 0x88, 0xbd, 0xa2, 0x6e, 0x2b, 0xbe, 0x0f, 0x5e, 0x7d, 0xbc,
  0x5c, 0xb8, 0x60, 0xbe, 0x08, 0xe2, 0xdd, 0x3c, 0xb2, 0x99, 0x92, 0xbd,
  0x82, 0xb8, 0x32, 0xbe, 0xfc, 0x85, 0x33, 0xbe, 0xf2, 0x20, 0x7e, 0x3d,
  0xa1, 0xf4, 0x88, 0xbd, 0xe8, 0xcb, 0xcb, 0x3d, 0xe4, 0xba, 0xd5, 0x3d,
  0xf1, 0x3a, 0x03, 0xbe, 0xf4, 0xee, 0x2e, 0xbe, 0x78, 0xf5, 0x37, 0xbe,
  0x28, 0x9e, 0x3a, 0x3e, 0xc2, 0x6e, 0xc4, 0xbd, 0xa0, 0x6a, 0x9b, 0xbe,
  0xb9, 0x5c, 0x25, 0xbe, 0x2e, 0xa6, 0x21, 0xbe, 0xe4, 0x24, 0x03, 0xbc,
  0xa2, 0xb0, 0xf7, 0x3d, 0x08, 0xdc, 0xf3, 0xbd, 0xda, 0xf4, 0x01, 0x3d,
  0x10, 0xad, 0x85, 0x3e, 0x50, 0x83, 0x3b, 0x3e, 0x8d, 0x31, 0x84, 0x3d,
  0x96, 0x82, 0x38, 0x3e, 0xa7, 0x49, 0x83, 0xbd, 0x86, 0x8a, 0xa0, 0xbe,
  0xbd, 0x69, 0x5b, 0x3e, 0x0d, 0x1c, 0xd9, 0x3d, 0x0f, 0x2d, 0x3d, 0x3d,
  0x2e, 0x08, 0x2d, 0x3e, 0x42, 0x19, 0x5d, 0xbe, 0xc5, 0x1b, 0xe5, 0xbd,
  0xae, 0x1f, 0x42, 0x3e, 0xec, 0xa5, 0x9f, 0xbd, 0xec, 0x03, 0xbc, 0xbd,
  0xd7, 0x49, 0xaa, 0x3d, 0x6a, 0xe0, 0x23, 0xbe, 0xce, 0xe2, 0x1b, 0x3e,
  0x8a, 0x5e, 0x96, 0xbd, 0xc5, 0x69, 0x14, 0x3d, 0x6a, 0x5c, 0xc9, 0xbd,
  0x29, 0x9e, 0xa3, 0xbd, 0x9f, 0xfc, 0x14, 0x3e, 0xe9, 0x20, 0xe8, 0x3d,
  0x10, 0x8f, 0x31, 0xbe, 0xb0, 0x94, 0x36, 0x3e, 0xcd, 0xfe, 0x2f, 0x3d,
  0xf8, 0x22, 0xb2, 0xbd, 0x66, 0x50, 0x2a, 0xbe, 0x03, 0x86, 0x30, 0xbe,
  0x86, 0x87, 0xf1, 0xbd, 0x44, 0xbb, 0xda, 0x3c, 0xe2, 0xbb, 0x15, 0xbe,
  0x8d, 0xae, 0xc9, 0x3d, 0x17, 0xa3, 0x08, 0x3e, 0x6c, 0x62, 0x18, 0xbe,
  0xd0, 0xf6, 0xb4, 0xbd, 0x45, 0xc6, 0x12, 0xbd, 0xc1, 0xfc, 0xf5, 0x3b,
  0xbc, 0xcf, 0xd2, 0xbd, 0x71, 0x3e, 0xe8, 0x3d, 0xf7, 0x5f, 0x1e, 0x3d,
  0xa2, 0x80, 0x10, 0x3e, 0xfd, 0x51, 0x2d, 0x3e, 0x99, 0x33, 0x30, 0xbe,
  0xd4, 0xff, 0x3b, 0x3d, 0x0a, 0x34, 0x8e, 0xbd, 0x75, 0x12, 0x12, 0xbe,
  0x6d, 0x5f, 0xcc, 0xbd, 0x66, 0xb2, 0xfa, 0x3d, 0xe7, 0xff, 0x2a, 0x3e,
  0x9b, 0x60, 0x02, 0xbe, 0x07, 0x8c, 0x51, 0x3e, 0x54, 0x7c, 0x3d, 0xbe,
  0xc6, 0xa5, 0x2c, 0x3e, 0xe1, 0x61, 0x54, 0x3e, 0xae, 0xab, 0xc0, 0xbc,
  0x55, 0xf7, 0x40, 0x3d, 0xc3, 0x9d, 0xcd, 0xbd, 0x16, 0xdf, 0x39, 0xbe,
  0xa4, 0x58, 0x4c, 0xbe, 0x6d, 0xd0, 0x64, 0x3d, 0x79, 0xe3, 0x89, 0x3c,
  0xed, 0x24, 0x23, 0xbe, 0x68, 0xc0, 0x31, 0x3e, 0x6f, 0xf4, 0xf2, 0x3c,
  0xb3, 0x8f, 0x28, 0x3e, 0xe9, 0x11, 0xe0, 0x3d, 0x0f, 0x64, 0xe8, 0xbd,
  0x62, 0x1e, 0x12, 0x3e, 0x29, 0xf5, 0xfe, 0xbd, 0x87, 0x8e, 0x16, 0xbd,
  0xd6, 0x80, 0xec, 0xbc, 0x31, 0x18, 0x13, 0x3e, 0xc0, 0x67, 0x28, 0xbd,
  0x88, 0xa7, 0xc5, 0x3d, 0xa9, 0x96, 0xfe, 0x3d, 0xcb, 0xc5, 0x18, 0x3e,
  0x38, 0x94, 0x16, 0xbe, 0x3b, 0x0f, 0x1c, 0xbe, 0xba, 0x12, 0x2f, 0xbe,
  0x72, 0x91, 0x60, 0x3c, 0xd3, 0xad, 0x34, 0x3a, 0x22, 0x2b, 0xbd, 0xbd,
  0x9a, 0xee, 0x8c, 0xbd, 0xdc, 0x33, 0x03, 0xbe, 0xac, 0xc1, 0x52, 0xbe,
  0x43, 0x7b, 0x3b, 0x3e, 0x92, 0x3a, 0x06, 0xbe, 0xe5, 0x69, 0x04, 0x3e,
  0xfe, 0xf8, 0xbd, 0xbd, 0x07, 0x95, 0x16, 0xbe, 0x31, 0xed, 0x4f, 0xbc,
  0x9c, 0x1a, 0x68, 0xbd, 0x73, 0x14, 0xec, 0xbd, 0xd3, 0xd1, 0x7f, 0x3d,
  0x91, 0x21, 0xfc, 0x3d, 0xe6, 0x98, 0x1d, 0xbe, 0xea, 0x42, 0x64, 0x3e,
  0x9b, 0x92, 0x6d, 0xbe, 0xab, 0x23, 0x60, 0xbd, 0x47, 0x56, 0xc6, 0xbd,
  0xff, 0xbf, 0x30, 0xbe, 0x92, 0xcf, 0x42, 0xbe, 0xf0, 0x34, 0x1e, 0x3e,
  0x98, 0xb7, 0x3c, 0x3d, 0x0c, 0x3d, 0x57, 0xbe, 0x81, 0x15, 0xc4, 0xbc,
  0x3e, 0xbc, 0xe1, 0x3b, 0x04, 0x07, 0x09, 0x3e, 0x42, 0x5a, 0x40, 0xbe,
  0x37, 0xe2, 0x04, 0x3e, 0xc3, 0xd6, 0xee, 0x3d, 0x30, 0x07, 0xd4, 0x3d,
  0x83, 0xb6, 0x23, 0xbe, 0x24, 0xb4, 0x80, 0x3c, 0xc7, 0xfb, 0xd6, 0x3c,
  0x7b, 0xc0, 0xc3, 0xba, 0xc1, 0x06, 0xb0, 0x3c, 0xb7, 0x51, 0x17, 0x3e,
  0x13, 0x7b, 0xaf, 0x3d, 0x18, 0x3c, 0x44, 0xbd, 0xbb, 0x8d, 0x10, 0xbe,
  0xaa, 0xe7, 0xf7, 0x3d, 0xa6, 0x73, 0x2a, 0x3d, 0x45, 0xb8, 0x02, 0x3d,
  0x4f, 0x36, 0xbc, 0xbc, 0x52, 0x2d, 0x1c, 0x3e, 0x2c, 0x18, 0x13, 0xbd,
  0x25, 0x7b, 0x4b, 0x3e, 0xce, 0xb5, 0x06, 0xbc, 0x20, 0x76, 0xfc, 0xbd,
  0x16, 0x8f, 0x88, 0x3b, 0x42, 0x81, 0xcb, 0xbd, 0x2b, 0x29, 0x41, 0xbe,
  0xc3, 0xa4, 0xeb, 0xbd, 0x77, 0xe5, 0x28, 0xbc, 0x09, 0x33, 0x03, 0xbe,
  0xc1, 0x19, 0x61, 0x3e, 0x8d, 0x9e, 0x27, 0xbe, 0xd5, 0xc9, 0x2f, 0x3e,
  0x42, 0x67, 0x84, 0x3e, 0x3e, 0xd8, 0xed, 0xbc, 0xa9, 0x02, 0x54, 0xbe,
  0x26, 0x22, 0xc0, 0xbd, 0xf2, 0x41, 0x02, 0x3e, 0xef, 0x59, 0xbc, 0x3d,
  0xeb, 0x85, 0x82, 0x3e, 0x5d, 0x86, 0xb7, 0xbb, 0x50, 0x51, 0x21, 0xbe,
  0xdf, 0x5a, 0x41, 0x3d, 0xb4, 0x49, 0xdb, 0x3c, 0x7c, 0x5c, 0x8d, 0xbc,
  0x03, 0xe8, 0x1b, 0xbe, 0xae, 0x70, 0x0e, 0xbd, 0x06, 0xba, 0x48, 0xbe,
  0xfc, 0xf5, 0xea, 0xbc, 0xf3, 0xf7, 0x8d, 0x3d, 0x35, 0x04, 0x92, 0x3d,
  0x84, 0x15, 0x1d, 0xbe, 0x2d, 0x72, 0x5f, 0x3d, 0x52, 0x16, 0xa9, 0x3b,
  0x14, 0x95, 0x6f, 0x3e, 0x05, 0x40, 0x0c, 0x3e, 0x1d, 0x07, 0xc7, 0x3d,
  0x5a, 0x90, 0x9b, 0x3d, 0xc0, 0xf9, 0x78, 0x3d, 0x7c, 0x86, 0x51, 0xbe,
  0xe7, 0xa0, 0x74, 0x3e, 0x91, 0x34, 0x40, 0x3d, 0xaa, 0x13, 0x56, 0xbe,
  0xc4, 0x12, 0x93, 0xbc, 0x62, 0xce, 0x2f, 0x3e, 0x92, 0xd5, 0x6e, 0xbe,
  0x45, 0x21, 0x33, 0xbe, 0xe1, 0xf2, 0xfa, 0x3d, 0xdb, 0xe3, 0x22, 0xbe,
  0x3f, 0xe7, 0x02, 0xbd, 0x19, 0x6a, 0x58, 0x3e, 0xa8, 0xae, 0x41, 0xbe,
  0xaa, 0x3c, 0xcd, 0x3c, 0xea, 0xcc, 0xc7, 0x3c, 0x0d, 0x0e, 0x82, 0x3b,
  0x86, 0x12, 0x01, 0xbe, 0xbd, 0xfb, 0x88, 0x3d, 0x63, 0x3b, 0x54, 0xbe,
  0x14, 0xc8, 0x8b, 0x3d, 0x3a, 0x83, 0xf8, 0x3d, 0x38, 0x4f, 0x25, 0x3e,
  0x06, 0xe6, 0xd6, 0x3d, 0x57, 0x35, 0x5d, 0xbc, 0x2a, 0x2d, 0x3f, 0x3e,
  0x6d, 0x93, 0x56, 0xbe, 0xd7, 0x35, 0x12, 0xbd, 0x07, 0x88, 0x20, 0x3d,
  0xde, 0xd8, 0xcd, 0x3c, 0x93, 0xd8, 0x6f, 0x3d, 0xf8, 0x37, 0xe2, 0x3d,
  0xab, 0x35, 0x02, 0x3d, 0xb5, 0xd2, 0x3b, 0xbe, 0x78, 0x61, 0x5a, 0xbc,
  0x90, 0x5c, 0x1c, 0x3e, 0xd9, 0x5e, 0x0f, 0xbe, 0xc2, 0x7e, 0x02, 0xbe,
  0x5d, 0xe1, 0xfc, 0xbc, 0x8d, 0xa7, 0xf6, 0xbc, 0x96, 0x45, 0x33, 0x3d,
  0x1f, 0x79, 0xa3, 0x3d, 0xa4, 0xf1, 0x90, 0x3d, 0xb2, 0x4f, 0x77, 0x3b,
  0xad, 0xb8, 0x4d, 0xbe, 0x44, 0x58, 0x19, 0xbe, 0xe5, 0x83, 0x49, 0x3e,
  0x6c, 0xee, 0x11, 0xbe, 0xc3, 0x12, 0x4e, 0xbe, 0x2b, 0xc8, 0x33, 0xbe,
  0xe7, 0xb6, 0x52, 0xbe, 0x06, 0x9a, 0x45, 0x3d, 0xb4, 0x49, 0x0b, 0x3c,
  0x6d, 0xa6, 0x95, 0x3d, 0x1c, 0x14, 0x62, 0xbd, 0xcd, 0xb1, 0xf5, 0xbc,
  0x4e, 0xbb, 0xfe, 0x3d, 0xd8, 0xf5, 0x44, 0x3e, 0xaa, 0x25, 0x34, 0x3e,
  0x18, 0xa1, 0x15, 0x3e, 0xa9, 0x6b, 0x01, 0xbe, 0x12, 0x81, 0x03, 0xbe,
  0x09, 0xb2, 0x20, 0xbd, 0x9a, 0xe2, 0x1b, 0xbe, 0xce, 0x13, 0xb1, 0x3c,
  0x42, 0xd1, 0x21, 0xbe, 0x44, 0xb2, 0x4e, 0xbe, 0xe1, 0x71, 0x09, 0x3d,
  0x3d, 0x46, 0xbd, 0x3d, 0xff, 0x30, 0x13, 0xbe, 0x44, 0xc9, 0x40, 0xbd,
  0xa4, 0xa5, 0x77, 0xbe, 0x5d, 0x9a, 0x88, 0xbe, 0xdf, 0xc2, 0x40, 0x3e,
  0xd3, 0x38, 0x59, 0xbd, 0xc0, 0x1a, 0x4a, 0xbe, 0x17, 0x18, 0x7f, 0x3d,
  0x33, 0x69, 0x06, 0xbe, 0xaa, 0xb5, 0xb3, 0x3c, 0xba, 0x9f, 0x55, 0x3e,
  0x75, 0x6f, 0x81, 0xbe, 0x0d, 0x75, 0x83, 0xbe, 0xe8, 0xc7, 0x01, 0xbe,
  0x52, 0xb3, 0x9c, 0x3d, 0xd6, 0x28, 0x8c, 0xbd, 0x08, 0xb4, 0x9d, 0x3d,
  0x31, 0x3e, 0x48, 0xbe, 0x53, 0xfc, 0x33, 0xbe, 0xe0, 0xa8, 0x57, 0x3e,
  0x4b, 0x91, 0x1d, 0xbe, 0xd9, 0x24, 0xcd, 0xbd, 0x9b, 0x3e, 0xb1, 0xbd,
  0x8d, 0xb2, 0x58, 0x3d, 0xc7, 0x4c, 0x85, 0xbe, 0xd7, 0x52, 0xa4, 0xbd,
  0x00, 0xb3, 0xc8, 0xbd, 0x8a, 0x8b, 0x86, 0xbe, 0x79, 0xff, 0xae, 0x3d,
  0x4c, 0x92, 0x59, 0x3d, 0xa2, 0xb5, 0x49, 0xbe, 0x6e, 0x30, 0x13, 0x3e,
  0x3b, 0xe3, 0x8e, 0xbd, 0xf2, 0xde, 0x2c, 0xbe, 0x66, 0x8c, 0x01, 0xbd,
  0xa0, 0x7b, 0x09, 0xbd, 0x7e, 0x76, 0x9c, 0xbe, 0xfb, 0x90, 0x1b, 0x3e,
  0xdc, 0x0d, 0x07, 0x3e, 0x4b, 0x93, 0x58, 0xbe, 0x96, 0x5a, 0x06, 0xbe,
  0x5f, 0x03, 0x33, 0xbe, 0x41, 0xa3, 0x86, 0xbd, 0xae, 0x79, 0x05, 0xbe,
  0x78, 0x4b, 0xeb, 0xbd, 0xd2, 0xe5, 0x06, 0xbc, 0xd0, 0xec, 0x90, 0x3d,
  0x2d, 0x74, 0x6b, 0xbd, 0x79, 0xb5, 0x4f, 0xba, 0x39, 0x6c, 0x2a, 0x3e,
  0x12, 0x33, 0xf6, 0xbd, 0x56, 0x5e, 0x89, 0xbe, 0xbe, 0x80, 0x0e, 0xbe,
  0x2c, 0x4f, 0x09, 0x3e, 0x66, 0x53, 0x00, 0xbe, 0x9a, 0xde, 0xef, 0xbd,
  0x08, 0x2f, 0x3c, 0xbe, 0xe7, 0x5b, 0xda, 0x3c, 0xdf, 0xc3, 0x53, 0xbd,
  0xc5, 0x2e, 0x69, 0x3e, 0x25, 0xdc, 0x02, 0xbe, 0xdf, 0x9e, 0x8d, 0x3d,
  0xe0, 0xda, 0xbd, 0x3d, 0x9b, 0x57, 0x3c, 0xbe, 0xa3, 0xc0, 0x54, 0xbd,
  0x7d, 0x38, 0x46, 0x3d, 0xcc, 0x28, 0xaf, 0x3d, 0x2b, 0xa5, 0x36, 0xbd,
  0x67, 0xc0, 0xcb, 0x3c, 0x43, 0x0b, 0xb5, 0x3c, 0x70, 0x83, 0xb0, 0x3d,
  0x86, 0x9c, 0x00, 0xbe, 0x86, 0xba, 0xad, 0x3c, 0x6a, 0x5a, 0x6c, 0xbd,
  0xfc, 0x68, 0x8c, 0x3e, 0x08, 0xa9, 0x62, 0x3e, 0xc7, 0xef, 0xef, 0x3d,
  0xef, 0x84, 0x9a, 0x3e, 0xa6, 0x63, 0x25, 0xbc, 0x58, 0xa9, 0xde, 0xbd,
  0x17, 0xcf, 0xc7, 0x3d, 0xe4, 0x7a, 0x7b, 0x3e, 0x4f, 0x74, 0x40, 0xbd,
  0xcd, 0xed, 0xda, 0xbc, 0xe8, 0xe0, 0x66, 0x3e, 0x96, 0x28, 0x6a, 0xbe,
  0x37, 0x79, 0x45, 0x3e, 0x4c, 0x00, 0xad, 0x3e, 0x35, 0x62, 0x6f, 0xbd,
  0xa8, 0xa3, 0x39, 0x3e, 0x7e, 0xa3, 0x43, 0x3e, 0x66, 0xf9, 0x70, 0x3d,
  0xef, 0xa6, 0x55, 0x3e, 0xbb, 0x9d, 0x9c, 0x3e, 0xe9, 0x40, 0x24, 0x3d,
  0xac, 0x6c, 0x52, 0x3e, 0x16, 0x13, 0x01, 0x3e, 0x8b, 0x38, 0x24, 0x3e,
  0xcc, 0xb5, 0x75, 0x3e, 0xc9, 0x98, 0x76, 0x3d, 0x4e, 0x42, 0x60, 0x3d,
  0x03, 0xe4, 0x77, 0x3e, 0xaa, 0x44, 0x2e, 0x3c, 0x70, 0x89, 0x1b, 0x3e,
  0x26, 0x7d, 0x6c, 0x3c, 0x81, 0x4d, 0xff, 0xbd, 0xb3, 0x16, 0x74, 0x3c,
  0xf8, 0x1c, 0x74, 0xbc, 0x64, 0xae, 0x48, 0xbe, 0x0e, 0xc1, 0xae, 0x3d,
  0xd5, 0xae, 0x4a, 0xbd, 0xfc, 0x5a, 0x32, 0xbe, 0x20, 0xf5, 0xb3, 0xbd,
  0x92, 0x18, 0x73, 0x3c, 0xf2, 0x1c, 0x12, 0xbd, 0x6d, 0xad, 0x22, 0x3e,
  0x25, 0x06, 0x65, 0xbd, 0x06, 0xb2, 0xf2, 0xbd, 0x04, 0x5f, 0xd8, 0x3d,
  0x61, 0x22, 0x2c, 0x3d, 0xb9, 0xf0, 0x36, 0xbe, 0xe4, 0x35, 0x96, 0xbd,
  0x62, 0x39, 0xb4, 0xbd, 0x54, 0xf4, 0x35, 0x3e, 0xda, 0x2c, 0x3e, 0x3d,
  0x08, 0xdd, 0x0c, 0xbd, 0x01, 0xdb, 0x86, 0x3c, 0xf4, 0xfe, 0x8d, 0xbd,
  0x5c, 0x30, 0x97, 0x3b, 0xaf, 0x31, 0x71, 0x3d, 0xf0, 0x1f, 0x00, 0xbe,
  0x08, 0x61, 0x03, 0xbe, 0x44, 0x39, 0x12, 0xbd, 0x43, 0x66, 0x57, 0x3c,
  0x55, 0xd8, 0x84, 0xbd, 0x82, 0x7e, 0xbe, 0xbd, 0xb3, 0x9e, 0x03, 0xbc,
  0x7b, 0xeb, 0xd7, 0xbd, 0x83, 0x86, 0xfb, 0xbd, 0x95, 0x9d, 0x22, 0xbe,
  0x73, 0xe0, 0xe7, 0xbd, 0x95, 0x18, 0x27, 0xbe, 0xd4, 0xb2, 0x6c, 0x3d,
  0xd1, 0x95, 0x43, 0xbe, 0xf4, 0x22, 0xde, 0xbd, 0x64, 0x7a, 0x25, 0xbe,
  0x9d, 0x7e, 0xa8, 0xbd, 0x65, 0xa6, 0xce, 0xbd, 0x3b, 0x3c, 0x4d, 0xbe,
  0x34, 0x4b, 0x0e, 0x3c, 0xdd, 0xa1, 0xa1, 0xbc, 0x7a, 0x17, 0xd8, 0x3d,
  0xdd, 0x0c, 0x6d, 0xbe, 0x86, 0x28, 0x18, 0xbd, 0xd0, 0xe7, 0xbf, 0x3c,
  0xee, 0x17, 0xc6, 0x3d, 0x16, 0xf7, 0x09, 0x3e, 0xd1, 0x77, 0x7b, 0x3d,
  0x65, 0x5c, 0xc1, 0x3d, 0xd5, 0x19, 0x04, 0x3e, 0x11, 0xe0, 0x95, 0xbd,
  0x7a, 0x86, 0x5c, 0xbe, 0x5f, 0x2c, 0x3b, 0xbd, 0x42, 0xdb, 0x32, 0xbd,
  0xba, 0x5b, 0x93, 0xbd, 0x7f, 0xd6, 0x94, 0xbd, 0x2b, 0x47, 0x11, 0xbe,
  0xd9, 0xa9, 0x83, 0xbd, 0xe8, 0xc2, 0x34, 0x3d, 0x06, 0xca, 0x5f, 0x3e,
  0x4b, 0x12, 0xff, 0x3d, 0x96, 0xab, 0x36, 0xbe, 0x38, 0x71, 0x42, 0xbe,
  0xd7, 0xa7, 0x0e, 0xbe, 0x73, 0x45, 0x5d, 0xbd, 0x15, 0x26, 0xd5, 0x3d,
  0xc4, 0xca, 0xac, 0xbd, 0x1d, 0x0c, 0xc3, 0x3d, 0xfa, 0x9e, 0xa5, 0xbc,
  0x14, 0xca, 0x14, 0xbe, 0xe2, 0xc5, 0xa1, 0xbd, 0x8f, 0xd6, 0x1b, 0xbe,
  0x0b, 0x6c, 0x35, 0x3e, 0xcc, 0xc9, 0x2e, 0x3e, 0x91, 0x67, 0xb5, 0x3c,
  0xbb, 0xfc, 0x22, 0x3c, 0x04, 0xec, 0xe4, 0x3d, 0xa3, 0xd3, 0xb4, 0xbc,
  0x10, 0x46, 0x04, 0xbe, 0x2d, 0xcf, 0xdc, 0xbd, 0x4e, 0x96, 0x62, 0xbe,
  0xcf, 0x39, 0x44, 0x3e, 0x41, 0x5b, 0xee, 0x3c, 0xf8, 0x7e, 0xf5, 0xbd,
  0x48, 0xf7, 0x78, 0x3c, 0x74, 0x36, 0xe5, 0x3d, 0x1d, 0xa4, 0x4c, 0xbc,
  0x03, 0xe7, 0x1b, 0xbe, 0x19, 0x2a, 0xd7, 0xbd, 0x5a, 0x8c, 0x21, 0xbe,
  0x4d, 0x24, 0x22, 0x3b, 0x1c, 0xce, 0x16, 0xbe, 0xa6, 0xcf, 0x18, 0xbe,
  0xc5, 0xff, 0xb7, 0xbc, 0xac, 0x15, 0x2b, 0xbe, 0xc4, 0x5a, 0x64, 0xbe,
  0x05, 0x7c, 0x16, 0x3d, 0x14, 0xd2, 0x4a, 0x3e, 0xba, 0xe0, 0x9e, 0x3c,
  0x28, 0xf3, 0x28, 0x3e, 0x20, 0x30, 0x3c, 0x3e, 0xbe, 0x44, 0xec, 0xbd,
  0xcb, 0x92, 0xb3, 0x3d, 0xdc, 0x5c, 0x10, 0x3c, 0xf2, 0x68, 0x6c, 0x3b,
  0x96, 0x25, 0x01, 0x3e, 0xa4, 0x0e, 0x8a, 0x3d, 0xa9, 0x5a, 0x66, 0xbe,
  0x4d, 0x0c, 0xa6, 0xbd, 0xc8, 0x3a, 0xce, 0xbc, 0x0f, 0x84, 0xca, 0xbd,
  0x3e, 0xf7, 0x7f, 0xbe, 0x95, 0x25, 0x25, 0x3e, 0x5c, 0x71, 0xd9, 0xbc,
  0x7b, 0x4a, 0x83, 0xbe, 0x76, 0x7a, 0x74, 0x3e, 0x14, 0xa6, 0x79, 0xbd,
  0xd6, 0x7a, 0xec, 0xbc, 0x58, 0x9c, 0xcc, 0x3d, 0x58, 0x5c, 0x23, 0xbe,
  0xc9, 0x63, 0x08, 0x3e, 0xbc, 0x47, 0x39, 0xbe, 0xd2, 0x84, 0x34, 0xbe,
  0x68, 0x8c, 0xda, 0x3d, 0x58, 0xa6, 0x18, 0xbd, 0xb1, 0x52, 0x73, 0x3d,
  0xbd, 0x25, 0x70, 0x3b, 0x9f, 0xc9, 0x9b, 0xbc, 0x13, 0x9e, 0x7a, 0xbd,
  0x5b, 0x8f, 0x5d, 0x3e, 0x64, 0xc6, 0x85, 0x3d, 0x9c, 0x78, 0xf5, 0x3d,
  0x6a, 0xca, 0x07, 0x3e, 0xe0, 0x9f, 0x11, 0xbe, 0xcf, 0x2e, 0x5d, 0x3a,
  0x53, 0xbe, 0x1e, 0x3e, 0xe4, 0xe4, 0x6f, 0xbe, 0x0f, 0xdb, 0x77, 0xb9,
  0x08, 0x3b, 0x22, 0x3e, 0x2e, 0x92, 0xc4, 0x3d, 0x24, 0xe6, 0x54, 0xbe,
  0xd8, 0x26, 0x1e, 0x3e, 0xa2, 0xd1, 0x30, 0xbe, 0x73, 0xaf, 0x54, 0xbe,
  0x7c, 0x8e, 0x07, 0xbe, 0xe7, 0x10, 0x0f, 0x3e, 0x9b, 0xe0, 0x1f, 0xbe,
  0x6d, 0x69, 0x10, 0xbc, 0xb4, 0x71, 0x70, 0x3d, 0xd1, 0x07, 0x34, 0x3d,
  0x91, 0x02, 0xaf, 0x3c, 0x08, 0x15, 0x2b, 0x3d, 0x2c, 0xd7, 0x06, 0x3e,
  0x6b, 0x62, 0x0b, 0xbe, 0x88, 0xe6, 0xf8, 0x3d, 0x00, 0x0e, 0xc6, 0x38,
  0x50, 0x32, 0x7f, 0xbd, 0x24, 0x6d, 0xd2, 0x3c, 0x49, 0xf5, 0xab, 0x3d,
  0xbd, 0xe5, 0x15, 0xbe, 0x65, 0x68, 0x18, 0x3e, 0xa0, 0x42, 0xef, 0x3d,
  0x91, 0x4b, 0x75, 0xbe, 0xc2, 0xaf, 0x23, 0x3d, 0x7e, 0x11, 0xa7, 0x3d,
  0x3e, 0xc1, 0x7b, 0x3d, 0xa2, 0x89, 0xbd, 0xbd, 0x32, 0xfd, 0x34, 0x3d,
  0x56, 0x5c, 0x5a, 0xbe, 0x1d, 0xbf, 0xc3, 0x3d, 0xc8, 0xff, 0xc2, 0x3d,
  0xe4, 0xc5, 0x20, 0xbe, 0x53, 0x79, 0x1f, 0xbd, 0xbe, 0x60, 0xdf, 0xbd,
  0x38, 0xc7, 0xd4, 0xbd, 0x54, 0x60, 0xbd, 0x3d, 0x43, 0x08, 0xb9, 0xbd,
  0xf0, 0x0a, 0x1b, 0x3e, 0xa5, 0x08, 0xbc, 0x3c, 0xd7, 0x93, 0xdd, 0xbd,
  0xd6, 0x5f, 0x6a, 0xbd, 0x7d, 0x35, 0xc2, 0x3c, 0x34, 0xe2, 0x02, 0xbe,
  0xe6, 0x17, 0xed, 0x3c, 0xe5, 0x15, 0x73, 0x3d, 0x5f, 0xf7, 0xf1, 0x3d,
  0x1e, 0x00, 0xfb, 0xbd, 0xad, 0x6b, 0x87, 0x3e, 0x28, 0x00, 0x54, 0xbe,
  0x13, 0x6d, 0x08, 0xbd, 0x2d, 0x1c, 0xde, 0x3c, 0xd8, 0x55, 0x41, 0xbe,
  0x61, 0xb1, 0x20, 0x3e, 0xba, 0x23, 0xee, 0xbd, 0x4c, 0xde, 0xb9, 0x3d,
  0xa8, 0x28, 0xdd, 0x3d, 0xa1, 0x6f, 0x8d, 0xbd, 0xae, 0x70, 0xc8, 0xbd,
  0xc1, 0x62, 0x5d, 0xbe, 0x3a, 0xaf, 0x6b, 0x3e, 0xc5, 0x2d, 0xb2, 0xbd,
  0xfc, 0xde, 0x89, 0xbd, 0x55, 0xa2, 0x17, 0xbe, 0x4b, 0x4d, 0xce, 0x3d,
  0x17, 0x79, 0x81, 0xbd, 0xcc, 0x0a, 0x35, 0x3e, 0x31, 0x52, 0x74, 0x3b,
  0x36, 0x8c, 0x7d, 0xbe, 0xf5, 0x7a, 0xa0, 0xbd, 0x1f, 0xc4, 0xd0, 0x3d,
  0x53, 0xad, 0x5f, 0x3d, 0xb2, 0x2c, 0x06, 0x3e, 0xc4, 0x12, 0xf8, 0xbd,
  0x61, 0x21, 0xbd, 0xbc, 0x54, 0xfc, 0x59, 0xbe, 0x76, 0xf6, 0xab, 0xbd,
  0xe7, 0x20, 0x25, 0xbd, 0x3e, 0xff, 0x1c, 0x3e, 0xc1, 0xf6, 0x62, 0x3e,
  0xa0, 0xdf, 0x92, 0x3b, 0x21, 0x38, 0xf8, 0xbd, 0x4b, 0xde, 0x5b, 0xbe,
  0x1a, 0x9a, 0x90, 0xbd, 0x9c, 0xb5, 0xcb, 0x3a, 0xfc, 0xef, 0xa0, 0x3d,
  0x1d, 0x88, 0xa4, 0xbd, 0x4a, 0xb4, 0x8b, 0x3d, 0xcf, 0xa9, 0x2d, 0xbe,
  0xc8, 0xdd, 0x08, 0xbe, 0x0e, 0xd6, 0x05, 0xbe, 0x2e, 0x2c, 0x44, 0xbc,
  0xf6, 0xfc, 0xff, 0xff, 0x04, 0x00, 0x00, 0x00, 0x28, 0x00, 0x00, 0x00,
  0x4b, 0xf0, 0x0e, 0x3e, 0xbb, 0x5d, 0xbe, 0xbc, 0xb3, 0x2e, 0x0d, 0x3d,
  0xc1, 0x97, 0x9e, 0xbd, 0x37, 0x25, 0x08, 0x3b, 0xe7, 0x03, 0x58, 0x3b,
  0x8e, 0x79, 0x0c, 0xbd, 0xd1, 0x7f, 0x75, 0x3e, 0xb4, 0xcb, 0x9b, 0x3d,
  0x1e, 0x57, 0xa8, 0xbd, 0x2a, 0xfd, 0xff, 0xff, 0x04, 0x00, 0x00, 0x00,
  0x28, 0x00, 0x00, 0x00, 0x96, 0x6b, 0x6d, 0x3e, 0xc4, 0x28, 0x52, 0xbd,
  0x05, 0xde, 0x28, 0x3e, 0xa0, 0x51, 0x50, 0x3e, 0xe0, 0xb7, 0x26, 0xbd,
  0x45, 0xc3, 0xb5, 0xbb, 0xfa, 0xcd, 0x16, 0xbd, 0x1e, 0xbf, 0x5d, 0x3e,
  0xf3, 0x28, 0x59, 0xbd, 0x1b, 0xab, 0x1e, 0xbc, 0x5e, 0xfd, 0xff, 0xff,
  0x04, 0x00, 0x00, 0x00, 0x08, 0x00, 0x00, 0x00, 0x88, 0x37, 0x0e, 0x3e,
  0x88, 0x37, 0x0e, 0xbe, 0x72, 0xfd, 0xff, 0xff, 0x04, 0x00, 0x00, 0x00,
  0x90, 0x01, 0x00, 0x00, 0x48, 0x1b, 0x95, 0xbd, 0xd3, 0x1b, 0x07, 0x3d,
  0xf6, 0x46, 0x9f, 0x3d, 0xb9, 0x87, 0x4f, 0xbe, 0xe3, 0xa9, 0xc7, 0xbe,
  0x25, 0xa3, 0x79, 0xbe, 0x12, 0xdd, 0xa4, 0xbe, 0x40, 0x88, 0xc0, 0x3e,
  0xa1, 0x46, 0x95, 0x3e, 0x49, 0x83, 0xa6, 0xbe, 0x89, 0xd2, 0x25, 0x3e,
  0x95, 0x56, 0xf8, 0x3e, 0x22, 0xb0, 0xe0, 0xbe, 0x13, 0xb4, 0x99, 0x3e,
  0x6f, 0xee, 0xb9, 0xbd, 0x99, 0x59, 0xb5, 0x3e, 0xcb, 0x96, 0x0c, 0x3f,
  0x17, 0x9f, 0x23, 0xbd, 0x72, 0x37, 0xe6, 0xbe, 0x3e, 0xe9, 0xe4, 0xbe,
  0xa2, 0x0a, 0x91, 0xbe, 0x23, 0x52, 0xc4, 0x3e, 0xf2, 0xb2, 0xb7, 0xbe,
  0xbc, 0xd8, 0xfd, 0xbe, 0xa4, 0x00, 0x7e, 0x3e, 0xd0, 0x17, 0xa2, 0x3e,
  0xf9, 0xef, 0xb9, 0xbe, 0x1f, 0x35, 0x0c, 0x3f, 0xfc, 0xbc, 0xab, 0xbe,
  0x31, 0xc6, 0xa2, 0xbe, 0xe7, 0x1d, 0x39, 0x3f, 0xef, 0x2f, 0xbf, 0xbe,
  0x9a, 0xd4, 0x00, 0xbe, 0xad, 0xce, 0xfd, 0xbe, 0xb1, 0x52, 0x88, 0x3e,
  0x21, 0x46, 0x6f, 0x3e, 0xfc, 0x3a, 0xb1, 0xbe, 0xb2, 0xa8, 0x0d, 0x3f,
  0xd1, 0xc7, 0xd9, 0x3e, 0x24, 0x13, 0x1a, 0xbd, 0x7b, 0xed, 0xec, 0xbe,
  0xd0, 0xa8, 0x98, 0x3e, 0x8e, 0xba, 0x9d, 0xbe, 0x5d, 0x99, 0x4f, 0x3d,
  0x16, 0x52, 0x8c, 0x3e, 0xf7, 0x21, 0xc0, 0x3e, 0xeb, 0xa5, 0xff, 0x3e,
  0xc7, 0x86, 0xce, 0x3d, 0xf5, 0x7d, 0xee, 0xbd, 0x86, 0x17, 0x86, 0x3e,
  0x02, 0xa9, 0x06, 0xbf, 0x7f, 0x64, 0x02, 0x3f, 0x8e, 0x79, 0x02, 0xbf,
  0xef, 0x05, 0xfe, 0x3d, 0x8d, 0x5f, 0xb7, 0xbe, 0xa8, 0xf0, 0x7b, 0xbe,
  0xf1, 0xae, 0x90, 0xbe, 0xe3, 0x6d, 0x32, 0xbe, 0x0d, 0x61, 0xa2, 0x3e,
  0x85, 0xee, 0x09, 0xbe, 0xe3, 0x73, 0xcc, 0xbe, 0x8a, 0x05, 0x4a, 0x3e,
  0xd0, 0x35, 0xd2, 0xbe, 0xdb, 0x0e, 0x16, 0x3f, 0xf3, 0xe4, 0xf5, 0xbe,
  0x9b, 0xf7, 0x02, 0xbe, 0xf8, 0x16, 0x5e, 0x3e, 0xfe, 0x92, 0xbd, 0xbc,
  0x0f, 0xec, 0xc7, 0x3e, 0xf6, 0x14, 0x15, 0x3f, 0xb1, 0xe2, 0x8a, 0x3e,
  0x48, 0xe2, 0x1e, 0xbc, 0xba, 0xb0, 0x79, 0x3e, 0x67, 0x29, 0x06, 0xbe,
  0x52, 0x09, 0xfd, 0x3e, 0xd3, 0x96, 0x7e, 0x3e, 0xc5, 0xfb, 0x9c, 0xbe,
  0xe6, 0x15, 0x9b, 0x3e, 0x9c, 0x30, 0x24, 0xbe, 0x9a, 0x89, 0x80, 0xbe,
  0xeb, 0xb7, 0xed, 0xbb, 0x9e, 0xbb, 0xa1, 0x3e, 0x65, 0xc3, 0x59, 0xbe,
  0x2d, 0x70, 0xd1, 0x3d, 0x38, 0x2b, 0x76, 0x3e, 0x38, 0x83, 0x6e, 0x3e,
  0xab, 0x6a, 0x7e, 0x3e, 0x81, 0x66, 0x61, 0xbe, 0x4c, 0xcd, 0xc4, 0x3e,
  0x93, 0x68, 0xd8, 0x3e, 0x26, 0x6f, 0x07, 0xbf, 0x35, 0x9c, 0x50, 0x3e,
  0x8b, 0x48, 0x8e, 0xbe, 0x1d, 0xe5, 0xe8, 0xbd, 0x98, 0x6c, 0xfa, 0x3e,
  0x42, 0xe5, 0x13, 0x3f, 0x1c, 0x2c, 0x51, 0x3e, 0xfa, 0x85, 0xe8, 0xbd,
  0x91, 0x16, 0x12, 0x3e, 0x04, 0xa2, 0x4f, 0x3e, 0x0e, 0xff, 0xff, 0xff,
  0x04, 0x00, 0x00, 0x00, 0x50, 0x00, 0x00, 0x00, 0x07, 0x16, 0xfa, 0x3e,
  0xfe, 0xbe, 0xc0, 0xbd, 0x28, 0x54, 0x07, 0xbe, 0x8a, 0xe8, 0x16, 0x3e,
  0xc7, 0x9e, 0x1d, 0xbf, 0xcc, 0x59, 0x48, 0xbf, 0x91, 0x42, 0xca, 0xbe,
  0xdc, 0x70, 0x86, 0x3e, 0xb1, 0x75, 0x0b, 0xbf, 0x73, 0x75, 0x86, 0x3d,
  0xa9, 0xeb, 0x7b, 0xbf, 0xf2, 0x48, 0x06, 0x3f, 0xcd, 0x3c, 0x43, 0xbf,
  0x1a, 0x90, 0x0f, 0xbf, 0xe5, 0x7d, 0x44, 0x3e, 0x67, 0x04, 0xfb, 0xbd,
  0x28, 0x02, 0x4b, 0x3b, 0x1a, 0x4c, 0x0c, 0xbf, 0xca, 0xb2, 0x17, 0x3f,
  0x99, 0x91, 0xd4, 0x3e, 0xd0, 0xfa, 0xff, 0xff, 0xd4, 0xfa, 0xff, 0xff,
  0x0f, 0x00, 0x00, 0x00, 0x4d, 0x4c, 0x49, 0x52, 0x20, 0x43, 0x6f, 0x6e,
  0x76, 0x65, 0x72, 0x74, 0x65, 0x64, 0x2e, 0x00, 0x01, 0x00, 0x00, 0x00,
  0x14, 0x00, 0x00, 0x00, 0x00, 0x00, 0x0e, 0x00, 0x18, 0x00, 0x14, 0x00,
  0x10, 0x00, 0x0c, 0x00, 0x08, 0x00, 0x04, 0x00, 0x0e, 0x00, 0x00, 0x00,
  0x14, 0x00, 0x00, 0x00, 0x1c, 0x00, 0x00, 0x00, 0x24, 0x01, 0x00, 0x00,
  0x28, 0x01, 0x00, 0x00, 0x2c, 0x01, 0x00, 0x00, 0x04, 0x00, 0x00, 0x00,
  0x6d, 0x61, 0x69, 0x6e, 0x00, 0x00, 0x00, 0x00, 0x04, 0x00, 0x00, 0x00,
  0xcc, 0x00, 0x00, 0x00, 0x84, 0x00, 0x00, 0x00, 0x50, 0x00, 0x00, 0x00,
  0x14, 0x00, 0x00, 0x00, 0x00, 0x00, 0x0e, 0x00, 0x1a, 0x00, 0x14, 0x00,
  0x10, 0x00, 0x0c, 0x00, 0x0b, 0x00, 0x04, 0x00, 0x0e, 0x00, 0x00, 0x00,
  0x1c, 0x00, 0x00, 0x00, 0x00, 0x00, 0x00, 0x09, 0x1c, 0x00, 0x00, 0x00,
  0x20, 0x00, 0x00, 0x00, 0x01, 0x00, 0x00, 0x00, 0x00, 0x00, 0x06, 0x00,
  0x08, 0x00, 0x04, 0x00, 0x06, 0x00, 0x00, 0x00, 0x00, 0x00, 0x80, 0x3f,
  0x01, 0x00, 0x00, 0x00, 0x0a, 0x00, 0x00, 0x00, 0x01, 0x00, 0x00, 0x00,
  0x09, 0x00, 0x00, 0x00, 0x9a, 0xff, 0xff, 0xff, 0x10, 0x00, 0x00, 0x00,
  0x00, 0x00, 0x00, 0x08, 0x0c, 0x00, 0x00, 0x00, 0x10, 0x00, 0x00, 0x00,
  0x98, 0xfb, 0xff, 0xff, 0x01, 0x00, 0x00, 0x00, 0x09, 0x00, 0x00, 0x00,
  0x03, 0x00, 0x00, 0x00, 0x08, 0x00, 0x00, 0x00, 0x01, 0x00, 0x00, 0x00,
  0x03, 0x00, 0x00, 0x00, 0xca, 0xff, 0xff, 0xff, 0x10, 0x00, 0x00, 0x00,
  0x00, 0x00, 0x00, 0x08, 0x10, 0x00, 0x00, 0x00, 0x14, 0x00, 0x00, 0x00,
  0xba, 0xff, 0xff, 0xff, 0x00, 0x00, 0x00, 0x01, 0x01, 0x00, 0x00, 0x00,
  0x08, 0x00, 0x00, 0x00, 0x03, 0x00, 0x00, 0x00, 0x07, 0x00, 0x00, 0x00,
  0x02, 0x00, 0x00, 0x00, 0x04, 0x00, 0x00, 0x00, 0x00, 0x00, 0x0e, 0x00,
  0x16, 0x00, 0x00, 0x00, 0x10, 0x00, 0x0c, 0x00, 0x0b, 0x00, 0x04, 0x00,
  0x0e, 0x00, 0x00, 0x00, 0x18, 0x00, 0x00, 0x00, 0x00, 0x00, 0x00, 0x08,
  0x18, 0x00, 0x00, 0x00, 0x1c, 0x00, 0x00, 0x00, 0x00, 0x00, 0x06, 0x00,
  0x08, 0x00, 0x07, 0x00, 0x06, 0x00, 0x00, 0x00, 0x00, 0x00, 0x00, 0x01,
  0x01, 0x00, 0x00, 0x00, 0x07, 0x00, 0x00, 0x00, 0x03, 0x00, 0x00, 0x00,
  0x00, 0x00, 0x00, 0x00, 0x06, 0x00, 0x00, 0x00, 0x05, 0x00, 0x00, 0x00,
  0x01, 0x00, 0x00, 0x00, 0x0a, 0x00, 0x00, 0x00, 0x01, 0x00, 0x00, 0x00,
  0x00, 0x00, 0x00, 0x00, 0x0b, 0x00, 0x00, 0x00, 0xa0, 0x03, 0x00, 0x00,
  0x48, 0x03, 0x00, 0x00, 0x08, 0x03, 0x00, 0x00, 0xcc, 0x02, 0x00, 0x00,
  0x90, 0x02, 0x00, 0x00, 0x34, 0x02, 0x00, 0x00, 0xe4, 0x01, 0x00, 0x00,
  0x54, 0x01, 0x00, 0x00, 0xc4, 0x00, 0x00, 0x00, 0x50, 0x00, 0x00, 0x00,
  0x04, 0x00, 0x00, 0x00, 0xa2, 0xfc, 0xff, 0xff, 0x00, 0x00, 0x00, 0x01,
  0x10, 0x00, 0x00, 0x00, 0x10, 0x00, 0x00, 0x00, 0x0b, 0x00, 0x00, 0x00,
  0x28, 0x00, 0x00, 0x00, 0x8c, 0xfc, 0xff, 0xff, 0x1b, 0x00, 0x00, 0x00,
  0x53, 0x74, 0x61, 0x74, 0x65, 0x66, 0x75, 0x6c, 0x50, 0x61, 0x72, 0x74,
  0x69, 0x74, 0x69, 0x6f, 0x6e, 0x65, 0x64, 0x43, 0x61, 0x6c, 0x6c, 0x5f,
  0x31, 0x3a, 0x30, 0x00, 0x02, 0x00, 0x00, 0x00, 0x01, 0x00, 0x00, 0x00,
  0x02, 0x00, 0x00, 0x00, 0xea, 0xfc, 0xff, 0xff, 0x00, 0x00, 0x00, 0x01,
  0x10, 0x00, 0x00, 0x00, 0x10, 0x00, 0x00, 0x00, 0x0a, 0x00, 0x00, 0x00,
  0x50, 0x00, 0x00, 0x00, 0xd4, 0xfc, 0xff, 0xff, 0x40, 0x00, 0x00, 0x00,
  0x73, 0x65, 0x71, 0x75, 0x65, 0x6e, 0x74, 0x69, 0x61, 0x6c, 0x5f, 0x31,
  0x5f, 0x31, 0x2f, 0x64, 0x65, 0x6e, 0x73, 0x65, 0x5f, 0x35, 0x5f, 0x31,
  0x2f, 0x4d, 0x61, 0x74, 0x4d, 0x75, 0x6c, 0x3b, 0x73, 0x65, 0x71, 0x75,
  0x65, 0x6e, 0x74, 0x69, 0x61, 0x6c, 0x5f, 0x31, 0x5f, 0x31, 0x2f, 0x64,
  0x65, 0x6e, 0x73, 0x65, 0x5f, 0x35, 0x5f, 0x31, 0x2f, 0x42, 0x69, 0x61,
  0x73, 0x41, 0x64, 0x64, 0x00, 0x00, 0x00, 0x00, 0x02, 0x00, 0x00, 0x00,
  0x01, 0x00, 0x00, 0x00, 0x02, 0x00, 0x00, 0x00, 0x5a, 0xfd, 0xff, 0xff,
  0x00, 0x00, 0x00, 0x01, 0x10, 0x00, 0x00, 0x00, 0x10, 0x00, 0x00, 0x00,
  0x09, 0x00, 0x00, 0x00, 0x6c, 0x00, 0x00, 0x00, 0x44, 0xfd, 0xff, 0xff,
  0x5e, 0x00, 0x00, 0x00, 0x73, 0x65, 0x71, 0x75, 0x65, 0x6e, 0x74, 0x69,
  0x61, 0x6c, 0x5f, 0x31, 0x5f, 0x31, 0x2f, 0x64, 0x65, 0x6e, 0x73, 0x65,
  0x5f, 0x34, 0x5f, 0x31, 0x2f, 0x4d, 0x61, 0x74, 0x4d, 0x75, 0x6c, 0x3b,
  0x73, 0x65, 0x71, 0x75, 0x65, 0x6e, 0x74, 0x69, 0x61, 0x6c, 0x5f, 0x31,
  0x5f, 0x31, 0x2f, 0x64, 0x65, 0x6e, 0x73, 0x65, 0x5f, 0x34, 0x5f, 0x31,
  0x2f, 0x52, 0x65, 0x6c, 0x75, 0x3b, 0x73, 0x65, 0x71, 0x75, 0x65, 0x6e,
  0x74, 0x69, 0x61, 0x6c, 0x5f, 0x31, 0x5f, 0x31, 0x2f, 0x64, 0x65, 0x6e,
  0x73, 0x65, 0x5f, 0x34, 0x5f, 0x31, 0x2f, 0x42, 0x69, 0x61, 0x73, 0x41,
  0x64, 0x64, 0x00, 0x00, 0x02, 0x00, 0x00, 0x00, 0x01, 0x00, 0x00, 0x00,
  0x0a, 0x00, 0x00, 0x00, 0xe6, 0xfd, 0xff, 0xff, 0x00, 0x00, 0x00, 0x01,
  0x10, 0x00, 0x00, 0x00, 0x10, 0x00, 0x00, 0x00, 0x08, 0x00, 0x00, 0x00,
  0x6c, 0x00, 0x00, 0x00, 0xd0, 0xfd, 0xff, 0xff, 0x5e, 0x00, 0x00, 0x00,
  0x73, 0x65, 0x71, 0x75, 0x65, 0x6e, 0x74, 0x69, 0x61, 0x6c, 0x5f, 0x31,
  0x5f, 0x31, 0x2f, 0x64, 0x65, 0x6e, 0x73, 0x65, 0x5f, 0x33, 0x5f, 0x31,
  0x2f, 0x4d, 0x61, 0x74, 0x4d, 0x75, 0x6c, 0x3b, 0x73, 0x65, 0x71, 0x75,
  0x65, 0x6e, 0x74, 0x69, 0x61, 0x6c, 0x5f, 0x31, 0x5f, 0x31, 0x2f, 0x64,
  0x65, 0x6e, 0x73, 0x65, 0x5f, 0x33, 0x5f, 0x31, 0x2f, 0x52, 0x65, 0x6c,
  0x75, 0x3b, 0x73, 0x65, 0x71, 0x75, 0x65, 0x6e, 0x74, 0x69, 0x61, 0x6c,
  0x5f, 0x31, 0x5f, 0x31, 0x2f, 0x64, 0x65, 0x6e, 0x73, 0x65, 0x5f, 0x33,
  0x5f, 0x31, 0x2f, 0x42, 0x69, 0x61, 0x73, 0x41, 0x64, 0x64, 0x00, 0x00,
  0x02, 0x00, 0x00, 0x00, 0x01, 0x00, 0x00, 0x00, 0x0a, 0x00, 0x00, 0x00,
  0x72, 0xfe, 0xff, 0xff, 0x00, 0x00, 0x00, 0x01, 0x10, 0x00, 0x00, 0x00,
  0x10, 0x00, 0x00, 0x00, 0x07, 0x00, 0x00, 0x00, 0x2c, 0x00, 0x00, 0x00,
  0x5c, 0xfe, 0xff, 0xff, 0x1f, 0x00, 0x00, 0x00, 0x73, 0x65, 0x71, 0x75,
  0x65, 0x6e, 0x74, 0x69, 0x61, 0x6c, 0x5f, 0x31, 0x5f, 0x31, 0x2f, 0x64,
  0x65, 0x6e, 0x73, 0x65, 0x5f, 0x33, 0x5f, 0x31, 0x2f, 0x4d, 0x61, 0x74,
  0x4d, 0x75, 0x6c, 0x00, 0x02, 0x00, 0x00, 0x00, 0x0a, 0x00, 0x00, 0x00,
  0x78, 0x00, 0x00, 0x00, 0xbe, 0xfe, 0xff, 0xff, 0x00, 0x00, 0x00, 0x01,
  0x10, 0x00, 0x00, 0x00, 0x10, 0x00, 0x00, 0x00, 0x06, 0x00, 0x00, 0x00,
  0x3c, 0x00, 0x00, 0x00, 0xa8, 0xfe, 0xff, 0xff, 0x2f, 0x00, 0x00, 0x00,
  0x73, 0x65, 0x71, 0x75, 0x65, 0x6e, 0x74, 0x69, 0x61, 0x6c, 0x5f, 0x31,
  0x5f, 0x31, 0x2f, 0x64, 0x65, 0x6e, 0x73, 0x65, 0x5f, 0x33, 0x5f, 0x31,
  0x2f, 0x42, 0x69, 0x61, 0x73, 0x41, 0x64, 0x64, 0x2f, 0x52, 0x65, 0x61,
  0x64, 0x56, 0x61, 0x72, 0x69, 0x61, 0x62, 0x6c, 0x65, 0x4f, 0x70, 0x00,
  0x01, 0x00, 0x00, 0x00, 0x0a, 0x00, 0x00, 0x00, 0x16, 0xff, 0xff, 0xff,
  0x00, 0x00, 0x00, 0x01, 0x10, 0x00, 0x00, 0x00, 0x10, 0x00, 0x00, 0x00,
  0x05, 0x00, 0x00, 0x00, 0x1c, 0x00, 0x00, 0x00, 0x00, 0xff, 0xff, 0xff,
  0x0f, 0x00, 0x00, 0x00, 0x61, 0x72, 0x69, 0x74, 0x68, 0x2e, 0x63, 0x6f,
  0x6e, 0x73, 0x74, 0x61, 0x6e, 0x74, 0x33, 0x00, 0x01, 0x00, 0x00, 0x00,
  0x0a, 0x00, 0x00, 0x00, 0x4e, 0xff, 0xff, 0xff, 0x00, 0x00, 0x00, 0x01,
  0x10, 0x00, 0x00, 0x00, 0x10, 0x00, 0x00, 0x00, 0x04, 0x00, 0x00, 0x00,
  0x1c, 0x00, 0x00, 0x00, 0x38, 0xff, 0xff, 0xff, 0x0f, 0x00, 0x00, 0x00,
  0x61, 0x72, 0x69, 0x74, 0x68, 0x2e, 0x63, 0x6f, 0x6e, 0x73, 0x74, 0x61,
  0x6e, 0x74, 0x32, 0x00, 0x01, 0x00, 0x00, 0x00, 0x02, 0x00, 0x00, 0x00,
  0x86, 0xff, 0xff, 0xff, 0x00, 0x00, 0x00, 0x01, 0x10, 0x00, 0x00, 0x00,
  0x10, 0x00, 0x00, 0x00, 0x03, 0x00, 0x00, 0x00, 0x1c, 0x00, 0x00, 0x00,
  0x70, 0xff, 0xff, 0xff, 0x0f, 0x00, 0x00, 0x00, 0x61, 0x72, 0x69, 0x74,
  0x68, 0x2e, 0x63, 0x6f, 0x6e, 0x73, 0x74, 0x61, 0x6e, 0x74, 0x31, 0x00,
  0x02, 0x00, 0x00, 0x00, 0x0a, 0x00, 0x00, 0x00, 0x0a, 0x00, 0x00, 0x00,
  0xc2, 0xff, 0xff, 0xff, 0x00, 0x00, 0x00, 0x01, 0x10, 0x00, 0x00, 0x00,
  0x10, 0x00, 0x00, 0x00, 0x02, 0x00, 0x00, 0x00, 0x1c, 0x00, 0x00, 0x00,
  0xac, 0xff, 0xff, 0xff, 0x0e, 0x00, 0x00, 0x00, 0x61, 0x72, 0x69, 0x74,
  0x68, 0x2e, 0x63, 0x6f, 0x6e, 0x73, 0x74, 0x61, 0x6e, 0x74, 0x00, 0x00,
  0x02, 0x00, 0x00, 0x00, 0x02, 0x00, 0x00, 0x00, 0x0a, 0x00, 0x00, 0x00,
  0x00, 0x00, 0x16, 0x00, 0x18, 0x00, 0x14, 0x00, 0x00, 0x00, 0x10, 0x00,
  0x0c, 0x00, 0x08, 0x00, 0x00, 0x00, 0x00, 0x00, 0x00, 0x00, 0x07, 0x00,
  0x16, 0x00, 0x00, 0x00, 0x00, 0x00, 0x00, 0x01, 0x14, 0x00, 0x00, 0x00,
  0x14, 0x00, 0x00, 0x00, 0x01, 0x00, 0x00, 0x00, 0x34, 0x00, 0x00, 0x00,
  0x04, 0x00, 0x04, 0x00, 0x04, 0x00, 0x00, 0x00, 0x20, 0x00, 0x00, 0x00,
  0x73, 0x65, 0x72, 0x76, 0x69, 0x6e, 0x67, 0x5f, 0x64, 0x65, 0x66, 0x61,
  0x75, 0x6c, 0x74, 0x5f, 0x6b, 0x65, 0x72, 0x61, 0x73, 0x5f, 0x74, 0x65,
  0x6e, 0x73, 0x6f, 0x72, 0x5f, 0x35, 0x3a, 0x30, 0x00, 0x00, 0x00, 0x00,
  0x02, 0x00, 0x00, 0x00, 0x01, 0x00, 0x00, 0x00, 0x78, 0x00, 0x00, 0x00,
  0x02, 0x00, 0x00, 0x00, 0x20, 0x00, 0x00, 0x00, 0x04, 0x00, 0x00, 0x00,
  0xf4, 0xff, 0xff, 0xff, 0x19, 0x00, 0x00, 0x00, 0x00, 0x00, 0x00, 0x19,
  0x0c, 0x00, 0x0c, 0x00, 0x0b, 0x00, 0x00, 0x00, 0x00, 0x00, 0x04, 0x00,
  0x0c, 0x00, 0x00, 0x00, 0x09, 0x00, 0x00, 0x00, 0x00, 0x00, 0x00, 0x09
};
